#ifndef MODEL_DATA_H
#define MODEL_DATA_H

const unsigned char model_data[] = { 0x1c, 0x00, 0x00, 0x00, 0x54, 0x46, 0x4c, 0x33, 0x14, 0x00, 0x20, 0x00, 0x1c, 0x00, 0x18, 0x00, 0x14, 0x00, 0x10, 0x00, 0x0c, 0x00, 0x00, 0x00, 0x08, 0x00, 0x04, 0x00, 0x14, 0x00, 0x00, 0x00, 0x1c, 0x00, 0x00, 0x00, 0x98, 0x00, 0x00, 0x00, 0xf0, 0x00, 0x00, 0x00, 0xc0, 0x05, 0x00, 0x00, 0xd0, 0x05, 0x00, 0x00, 0x84, 0x0b, 0x00, 0x00, 0x03, 0x00, 0x00, 0x00, 0x01, 0x00, 0x00, 0x00, 0x10, 0x00, 0x00, 0x00, 0x00, 0x00, 0x0a, 0x00, 0x10, 0x00, 0x0c, 0x00, 0x08, 0x00, 0x04, 0x00, 0x0a, 0x00, 0x00, 0x00, 0x0c, 0x00, 0x00, 0x00, 0x1c, 0x00, 0x00, 0x00, 0x3c, 0x00, 0x00, 0x00, 0x0f, 0x00, 0x00, 0x00, 0x73, 0x65, 0x72, 0x76, 0x69, 0x6e, 0x67, 0x5f, 0x64, 0x65, 0x66, 0x61, 0x75, 0x6c, 0x74, 0x00, 0x01, 0x00, 0x00, 0x00, 0x04, 0x00, 0x00, 0x00, 0x90, 0xff, 0xff, 0xff, 0x0a, 0x00, 0x00, 0x00, 0x04, 0x00, 0x00, 0x00, 0x08, 0x00, 0x00, 0x00, 0x6f, 0x75, 0x74, 0x70, 0x75, 0x74, 0x5f, 0x30, 0x00, 0x00, 0x00, 0x00, 0x01, 0x00, 0x00, 0x00, 0x04, 0x00, 0x00, 0x00, 0x26, 0xfa, 0xff, 0xff, 0x04, 0x00, 0x00, 0x00, 0x0c, 0x00, 0x00, 0x00, 0x6b, 0x65, 0x72, 0x61, 0x73, 0x5f, 0x74, 0x65, 0x6e, 0x73, 0x6f, 0x72, 0x00, 0x00, 0x00, 0x00, 0x02, 0x00, 0x00, 0x00, 0x34, 0x00, 0x00, 0x00, 0x04, 0x00, 0x00, 0x00, 0xdc, 0xff, 0xff, 0xff, 0x0d, 0x00, 0x00, 0x00, 0x04, 0x00, 0x00, 0x00, 0x13, 0x00, 0x00, 0x00, 0x43, 0x4f, 0x4e, 0x56, 0x45, 0x52, 0x53, 0x49, 0x4f, 0x4e, 0x5f, 0x4d, 0x45, 0x54, 0x41, 0x44, 0x41, 0x54, 0x41, 0x00, 0x08, 0x00, 0x0c, 0x00, 0x08, 0x00, 0x04, 0x00, 0x08, 0x00, 0x00, 0x00, 0x0c, 0x00, 0x00, 0x00, 0x04, 0x00, 0x00, 0x00, 0x13, 0x00, 0x00, 0x00, 0x6d, 0x69, 0x6e, 0x5f, 0x72, 0x75, 0x6e, 0x74, 0x69, 0x6d, 0x65, 0x5f, 0x76, 0x65, 0x72, 0x73, 0x69, 0x6f, 0x6e, 0x00, 0x0e, 0x00, 0x00, 0x00, 0xcc, 0x04, 0x00, 0x00, 0xc4, 0x04, 0x00, 0x00, 0x34, 0x04, 0x00, 0x00, 0x24, 0x02, 0x00, 0x00, 0x04, 0x02, 0x00, 0x00, 0xd4, 0x01, 0x00, 0x00, 0x84, 0x01, 0x00, 0x00, 0xb4, 0x00, 0x00, 0x00, 0xac, 0x00, 0x00, 0x00, 0xa4, 0x00, 0x00, 0x00, 0x9c, 0x00, 0x00, 0x00, 0x94, 0x00, 0x00, 0x00, 0x74, 0x00, 0x00, 0x00, 0x04, 0x00, 0x00, 0x00, 0xda, 0xfa, 0xff, 0xff, 0x04, 0x00, 0x00, 0x00, 0x60, 0x00, 0x00, 0x00, 0x0c, 0x00, 0x00, 0x00, 0x08, 0x00, 0x0e, 0x00, 0x08, 0x00, 0x04, 0x00, 0x08, 0x00, 0x00, 0x00, 0x10, 0x00, 0x00, 0x00, 0x28, 0x00, 0x00, 0x00, 0x00, 0x00, 0x06, 0x00, 0x08, 0x00, 0x04, 0x00, 0x06, 0x00, 0x00, 0x00, 0x04, 0x00, 0x00, 0x00, 0x01, 0x00, 0x00, 0x00, 0xea, 0x03, 0x00, 0x00, 0x0c, 0x00, 0x18, 0x00, 0x14, 0x00, 0x10, 0x00, 0x0c, 0x00, 0x04, 0x00, 0x0c, 0x00, 0x00, 0x00, 0xd9, 0xce, 0xa9, 0x59, 0x12, 0x23, 0xce, 0xa9, 0x02, 0x00, 0x00, 0x00, 0x02, 0x00, 0x00, 0x00, 0x04, 0x00, 0x00, 0x00, 0x06, 0x00, 0x00, 0x00, 0x32, 0x2e, 0x31, 0x39, 0x2e, 0x30, 0x00, 0x00, 0x46, 0xfb, 0xff, 0xff, 0x04, 0x00, 0x00, 0x00, 0x10, 0x00, 0x00, 0x00, 0x31, 0x2e, 0x35, 0x2e, 0x30, 0x00, 0x00, 0x00, 0x00, 0x00, 0x00, 0x00, 0x00, 0x00, 0x00, 0x00, 0x5c, 0xf6, 0xff, 0xff, 0x60, 0xf6, 0xff, 0xff, 0x64, 0xf6, 0xff, 0xff, 0x68, 0xf6, 0xff, 0xff, 0x72, 0xfb, 0xff, 0xff, 0x04, 0x00, 0x00, 0x00, 0xc0, 0x00, 0x00, 0x00, 0x50, 0x2a, 0x33, 0xbd, 0x94, 0x8b, 0x0b, 0xbf, 0xa0, 0xba, 0x3b, 0xbd, 0xb8, 0x67, 0x4a, 0xbe, 0x27, 0xa3, 0xda, 0x3d, 0xcd, 0x49, 0x0c, 0xbf, 0xca, 0x12, 0xc5, 0xbe, 0xa6, 0xac, 0x1b, 0xbe, 0x07, 0x2a, 0x09, 0x3f, 0x71, 0x17, 0x9d, 0xbe, 0xce, 0x28, 0x86, 0x3f, 0x22, 0xf0, 0x9f, 0xbe, 0x0c, 0x48, 0x19, 0x3e, 0x6f, 0x79, 0xb3, 0xbd, 0x23, 0xa5, 0x01, 0xbf, 0x38, 0x61, 0xe1, 0x3e, 0xe7, 0x1a, 0x35, 0x3e, 0x9d, 0xd3, 0xa7, 0x3e, 0x83, 0xb2, 0xc6, 0xbe, 0x30, 0xb5, 0xf4, 0xbe, 0xb2, 0xdf, 0xff, 0x3e, 0xa2, 0x46, 0x88, 0xbe, 0xe6, 0xc8, 0xd7, 0xbe, 0x60, 0x2f, 0x2b, 0xbd, 0x79, 0x7a, 0xfa, 0xbe, 0x48, 0x49, 0x6f, 0x3f, 0x9e, 0x62, 0x74, 0xbe, 0x31, 0x04, 0x7d, 0x3e, 0xa0, 0x2e, 0x20, 0x3f, 0x3f, 0xfd, 0x1a, 0xbf, 0xb3, 0x9d, 0xb6, 0x3d, 0xf9, 0x47, 0x61, 0x3c, 0x3b, 0x02, 0x72, 0x3e, 0x6a, 0xc9, 0xea, 0xbe, 0xfc, 0xc6, 0x9a, 0xbd, 0x33, 0xea, 0xe5, 0xbe, 0xf4, 0xcd, 0x17, 0xbd, 0x56, 0xef, 0x79, 0x3f, 0x85, 0x8a, 0x22, 0x3f, 0x6f, 0x77, 0xe4, 0xbe, 0x20, 0xca, 0xda, 0xbe, 0x38, 0x31, 0x6f, 0xbe, 0xfe, 0x88, 0x1e, 0x3e, 0x83, 0x81, 0x87, 0xbd, 0xcd, 0xc4, 0x67, 0xbe, 0x06, 0x4e, 0xdf, 0xbe, 0xfe, 0x06, 0x30, 0xbe, 0x84, 0x1e, 0x94, 0xbd, 0x3e, 0xfc, 0xff, 0xff, 0x04, 0x00, 0x00, 0x00, 0x40, 0x00, 0x00, 0x00, 0x00, 0x00, 0x00, 0x00, 0x10, 0x88, 0xde, 0xbc, 0x00, 0x00, 0x00, 0x00, 0x5d, 0x58, 0x3c, 0x3f, 0x8f, 0x33, 0xef, 0x3d, 0x45, 0xab, 0x52, 0xbe, 0x00, 0x00, 0x00, 0x00, 0x00, 0x00, 0x00, 0x00, 0xf1, 0xca, 0x37, 0x3f, 0x2b, 0xe8, 0x9f, 0x3e, 0xb1, 0xf6, 0xfa, 0xbe, 0x00, 0x00, 0x00, 0x00, 0x35, 0xbe, 0x99, 0x3e, 0x00, 0x00, 0x00, 0x00, 0x93, 0x66, 0xe6, 0x3e, 0x00, 0x00, 0x00, 0x00, 0x8a, 0xfc, 0xff, 0xff, 0x04, 0x00, 0x00, 0x00, 0x20, 0x00, 0x00, 0x00, 0x80, 0xfa, 0xe6, 0x3d, 0x06, 0x17, 0x1a, 0xbd, 0x12, 0x34, 0xc2, 0xbe, 0x00, 0x00, 0x00, 0x00, 0x00, 0x00, 0x00, 0x00, 0x85, 0x4a, 0x20, 0x3f, 0x5b, 0x1e, 0x94, 0x3e, 0x8b, 0x26, 0x49, 0x3f, 0xb6, 0xfc, 0xff, 0xff, 0x04, 0x00, 0x00, 0x00, 0x10, 0x00, 0x00, 0x00, 0x42, 0x61, 0x56, 0x3e, 0x5b, 0xce, 0x4a, 0x3e, 0x9d, 0x4b, 0x1b, 0x3e, 0x3a, 0xbe, 0xb6, 0xbe, 0xd2, 0xfc, 0xff, 0xff, 0x04, 0x00, 0x00, 0x00, 0x00, 0x02, 0x00, 0x00, 0x7c, 0x3e, 0xc6, 0xbe, 0xb8, 0x77, 0xe3, 0xbe, 0x08, 0x21, 0xcd, 0xbe, 0xee, 0xf3, 0x83, 0x3f, 0x41, 0xff, 0x57, 0xbf, 0xdf, 0xf6, 0xf4, 0x3e, 0x04, 0xf6, 0xb1, 0xbe, 0x1c, 0x02, 0xcc, 0x3e, 0xc3, 0x57, 0x96, 0x3f, 0x3a, 0xb6, 0xee, 0xbe, 0xb8, 0x25, 0xb5, 0xbe, 0x80, 0x2f, 0x75, 0xbd, 0x25, 0x79, 0x47, 0x3e, 0x60, 0x2c, 0x06, 0x3d, 0xd7, 0x54, 0xaa, 0x3d, 0xc0, 0x87, 0x61, 0xbd, 0x20, 0x5a, 0x24, 0xbd, 0x84, 0x8b, 0xae, 0xbe, 0xe8, 0x09, 0x05, 0x3e, 0x20, 0x78, 0x8a, 0xbe, 0x6e, 0x8d, 0xeb, 0xbd, 0x77, 0x90, 0xef, 0xbd, 0x2c, 0x37, 0xf7, 0x3e, 0x40, 0x51, 0xe9, 0x3d, 0x08, 0x24, 0xfa, 0xbe, 0x03, 0xa9, 0xe6, 0x3d, 0x6c, 0x76, 0xad, 0x3e, 0xf0, 0x09, 0xeb, 0xbd, 0xeb, 0x7a, 0x89, 0xbe, 0xa8, 0xe4, 0x9f, 0xbe, 0x8a, 0xef, 0xee, 0xbd, 0x10, 0x95, 0x91, 0xbd, 0xb4, 0x15, 0xe9, 0x3e, 0xf4, 0x44, 0xf8, 0xbe, 0x80, 0xbf, 0x29, 0xbd, 0x14, 0xd6, 0xd4, 0xbe, 0x91, 0xcf, 0x16, 0x3f, 0xd1, 0xf0, 0x8d, 0x3e, 0x88, 0xd5, 0x05, 0x3e, 0x4c, 0xb5, 0x84, 0x3e, 0x24, 0x74, 0xc0, 0xbe, 0xe8, 0xa9, 0xa7, 0x3d, 0x63, 0x7d, 0xc9, 0x3d, 0xa0, 0x16, 0xe1, 0xbd, 0x4a, 0x9f, 0xab, 0xbe, 0x68, 0x6d, 0xee, 0x3e, 0x7f, 0xe3, 0x56, 0x3e, 0xe0, 0x6a, 0xb0, 0xbe, 0xac, 0x96, 0xa7, 0xbe, 0x28, 0x61, 0xe8, 0x3e, 0xc0, 0x35, 0xc7, 0x3e, 0x00, 0x64, 0x73, 0xbe, 0x28, 0x57, 0x5e, 0x3e, 0xcc, 0x1b, 0xc6, 0xbe, 0xb8, 0xe8, 0x9d, 0xbe, 0xa8, 0x9a, 0x67, 0x3e, 0x18, 0x69, 0xa5, 0x3e, 0x2c, 0x11, 0xeb, 0xbe, 0x88, 0x5d, 0xa4, 0xbe, 0xec, 0xed, 0xc1, 0xbe, 0xc4, 0x6c, 0x85, 0xbe, 0x6c, 0x3a, 0x9f, 0x3e, 0xc0, 0x76, 0xb1, 0x3c, 0x20, 0x49, 0x93, 0xbd, 0x74, 0xd2, 0xf4, 0x3e, 0xe0, 0x60, 0x92, 0xbe, 0x38, 0xcf, 0x0b, 0xbe, 0xa0, 0xfb, 0xb1, 0xbe, 0x80, 0xa8, 0x3e, 0x3d, 0x30, 0x4b, 0xbb, 0xbd, 0x98, 0xdb, 0x84, 0x3e, 0x30, 0x8c, 0x9f, 0xbd, 0x00, 0x38, 0xaf, 0xbe, 0x98, 0xfa, 0xe6, 0xbe, 0xc0, 0x74, 0x27, 0x3d, 0xbc, 0xbf, 0xb4, 0x3e, 0x80, 0x6a, 0xbc, 0x3d, 0x28, 0x05, 0xda, 0xbe, 0xa8, 0xdc, 0xec, 0xbe, 0x74, 0x6b, 0xa6, 0x3e, 0xd0, 0xe5, 0x8a, 0x3d, 0x20, 0x5b, 0xdd, 0xbe, 0x18, 0xa9, 0xb7, 0xbe, 0x3f, 0x4a, 0x9a, 0x3f, 0x79, 0x8c, 0x8b, 0xbe, 0xfa, 0x1f, 0x20, 0xbe, 0x80, 0x38, 0xc5, 0xbc, 0xe4, 0x06, 0xe6, 0x3e, 0x7e, 0xdc, 0x99, 0x3f, 0x83, 0x4b, 0xce, 0x3e, 0xa0, 0x26, 0x90, 0xbe, 0x00, 0x60, 0x30, 0xbc, 0xb3, 0x17, 0x8b, 0x3e, 0x50, 0x67, 0x76, 0xbe, 0x19, 0xb7, 0xc9, 0x3e, 0x24, 0x49, 0xca, 0xbe, 0x38, 0x2c, 0x78, 0x3e, 0xc0, 0x6e, 0xa0, 0x3d, 0x90, 0x57, 0xa0, 0xbd, 0x9d, 0x0e, 0xc9, 0xbe, 0x33, 0x2a, 0x82, 0xbe, 0x5a, 0x1e, 0x1e, 0x3e, 0xc0, 0xd1, 0xc7, 0x3e, 0xc0, 0xff, 0xea, 0x3e, 0xea, 0xd1, 0xc6, 0xbe, 0x1b, 0x23, 0xef, 0x3e, 0x9b, 0xc7, 0xa3, 0xbe, 0xd8, 0xb8, 0x67, 0xbe, 0x5a, 0x92, 0xfd, 0x3e, 0x40, 0x5d, 0xc1, 0xbd, 0xb4, 0xa5, 0xbb, 0x3c, 0xd8, 0xb3, 0x8a, 0x3e, 0x60, 0xfc, 0x3f, 0x3d, 0x0c, 0x7a, 0xab, 0xbe, 0x00, 0x58, 0xb6, 0x3b, 0x0d, 0x15, 0x47, 0x3f, 0x08, 0xf0, 0x78, 0x3f, 0xff, 0xa8, 0x21, 0xbc, 0x38, 0x07, 0x63, 0x3e, 0xe0, 0xf0, 0x59, 0xbd, 0x14, 0x8e, 0x81, 0x3f, 0x70, 0x76, 0xe7, 0x3d, 0x10, 0x0a, 0xcf, 0xbe, 0x8c, 0xdb, 0xb6, 0x3e, 0x4b, 0xee, 0x36, 0xbe, 0xa0, 0xe3, 0xd1, 0x3e, 0xd7, 0xe0, 0x0d, 0x3f, 0x5c, 0x50, 0xa8, 0x3e, 0xde, 0xfe, 0xff, 0xff, 0x04, 0x00, 0x00, 0x00, 0x80, 0x00, 0x00, 0x00, 0x3e, 0xa8, 0xcf, 0x3e, 0xcd, 0x5d, 0xdb, 0xbc, 0xc9, 0x2d, 0x95, 0xbe, 0x5f, 0x7f, 0x28, 0x3f, 0x70, 0x84, 0x20, 0xbf, 0x13, 0x41, 0x7b, 0xbe, 0xe6, 0xb4, 0x36, 0x3f, 0x0a, 0x48, 0x38, 0xc0, 0x4b, 0x12, 0xa4, 0x3e, 0x5e, 0x7a, 0xb6, 0x3e, 0xac, 0x7f, 0xeb, 0x3e, 0xf2, 0x08, 0x9b, 0x3e, 0xc8, 0x47, 0x0e, 0xbe, 0xaa, 0x50, 0x95, 0x3f, 0x2b, 0xde, 0x52, 0xbf, 0x5c, 0xde, 0xfc, 0xbd, 0xf8, 0x1a, 0x62, 0xbf, 0x2a, 0x80, 0x8c, 0xbe, 0xf5, 0x56, 0x79, 0x3e, 0xc3, 0x06, 0x1b, 0x3f, 0x08, 0xd1, 0x76, 0xbe, 0x3b, 0xc5, 0xd2, 0xbf, 0x65, 0x6e, 0x1f, 0x3f, 0x74, 0x50, 0x58, 0x3f, 0xb3, 0xd8, 0x33, 0xbe, 0xd9, 0xaf, 0x13, 0x3f, 0x9f, 0xdb, 0x30, 0x3f, 0x08, 0xca, 0x0c, 0xbe, 0x88, 0x96, 0xef, 0xbe, 0x45, 0xc2, 0xb8, 0xbe, 0x41, 0x12, 0x50, 0x3e, 0xb0, 0x8c, 0xcc, 0xbf, 0x64, 0xfa, 0xff, 0xff, 0x68, 0xfa, 0xff, 0xff, 0x0f, 0x00, 0x00, 0x00, 0x4d, 0x4c, 0x49, 0x52, 0x20, 0x43, 0x6f, 0x6e, 0x76, 0x65, 0x72, 0x74, 0x65, 0x64, 0x2e, 0x00, 0x01, 0x00, 0x00, 0x00, 0x14, 0x00, 0x00, 0x00, 0x00, 0x00, 0x0e, 0x00, 0x18, 0x00, 0x14, 0x00, 0x10, 0x00, 0x0c, 0x00, 0x08, 0x00, 0x04, 0x00, 0x0e, 0x00, 0x00, 0x00, 0x14, 0x00, 0x00, 0x00, 0x1c, 0x00, 0x00, 0x00, 0x24, 0x01, 0x00, 0x00, 0x28, 0x01, 0x00, 0x00, 0x2c, 0x01, 0x00, 0x00, 0x04, 0x00, 0x00, 0x00, 0x6d, 0x61, 0x69, 0x6e, 0x00, 0x00, 0x00, 0x00, 0x04, 0x00, 0x00, 0x00, 0xcc, 0x00, 0x00, 0x00, 0x84, 0x00, 0x00, 0x00, 0x50, 0x00, 0x00, 0x00, 0x14, 0x00, 0x00, 0x00, 0x00, 0x00, 0x0e, 0x00, 0x1a, 0x00, 0x14, 0x00, 0x10, 0x00, 0x0c, 0x00, 0x0b, 0x00, 0x04, 0x00, 0x0e, 0x00, 0x00, 0x00, 0x1c, 0x00, 0x00, 0x00, 0x00, 0x00, 0x00, 0x09, 0x1c, 0x00, 0x00, 0x00, 0x20, 0x00, 0x00, 0x00, 0x01, 0x00, 0x00, 0x00, 0x00, 0x00, 0x06, 0x00, 0x08, 0x00, 0x04, 0x00, 0x06, 0x00, 0x00, 0x00, 0x00, 0x00, 0x80, 0x3f, 0x01, 0x00, 0x00, 0x00, 0x0a, 0x00, 0x00, 0x00, 0x01, 0x00, 0x00, 0x00, 0x09, 0x00, 0x00, 0x00, 0x9a, 0xff, 0xff, 0xff, 0x10, 0x00, 0x00, 0x00, 0x00, 0x00, 0x00, 0x08, 0x0c, 0x00, 0x00, 0x00, 0x10, 0x00, 0x00, 0x00, 0x2c, 0xfb, 0xff, 0xff, 0x01, 0x00, 0x00, 0x00, 0x09, 0x00, 0x00, 0x00, 0x03, 0x00, 0x00, 0x00, 0x08, 0x00, 0x00, 0x00, 0x01, 0x00, 0x00, 0x00, 0x03, 0x00, 0x00, 0x00, 0xca, 0xff, 0xff, 0xff, 0x10, 0x00, 0x00, 0x00, 0x00, 0x00, 0x00, 0x08, 0x10, 0x00, 0x00, 0x00, 0x14, 0x00, 0x00, 0x00, 0xba, 0xff, 0xff, 0xff, 0x00, 0x00, 0x00, 0x01, 0x01, 0x00, 0x00, 0x00, 0x08, 0x00, 0x00, 0x00, 0x03, 0x00, 0x00, 0x00, 0x07, 0x00, 0x00, 0x00, 0x02, 0x00, 0x00, 0x00, 0x04, 0x00, 0x00, 0x00, 0x00, 0x00, 0x0e, 0x00, 0x16, 0x00, 0x00, 0x00, 0x10, 0x00, 0x0c, 0x00, 0x0b, 0x00, 0x04, 0x00, 0x0e, 0x00, 0x00, 0x00, 0x18, 0x00, 0x00, 0x00, 0x00, 0x00, 0x00, 0x08, 0x18, 0x00, 0x00, 0x00, 0x1c, 0x00, 0x00, 0x00, 0x00, 0x00, 0x06, 0x00, 0x08, 0x00, 0x07, 0x00, 0x06, 0x00, 0x00, 0x00, 0x00, 0x00, 0x00, 0x01, 0x01, 0x00, 0x00, 0x00, 0x07, 0x00, 0x00, 0x00, 0x03, 0x00, 0x00, 0x00, 0x00, 0x00, 0x00, 0x00, 0x06, 0x00, 0x00, 0x00, 0x05, 0x00, 0x00, 0x00, 0x01, 0x00, 0x00, 0x00, 0x0a, 0x00, 0x00, 0x00, 0x01, 0x00, 0x00, 0x00, 0x00, 0x00, 0x00, 0x00, 0x0b, 0x00, 0x00, 0x00, 0xfc, 0x03, 0x00, 0x00, 0xa4, 0x03, 0x00, 0x00, 0x4c, 0x03, 0x00, 0x00, 0x10, 0x03, 0x00, 0x00, 0xb4, 0x02, 0x00, 0x00, 0x5c, 0x02, 0x00, 0x00, 0x10, 0x02, 0x00, 0x00, 0x7c, 0x01, 0x00, 0x00, 0xe0, 0x00, 0x00, 0x00, 0x60, 0x00, 0x00, 0x00, 0x04, 0x00, 0x00, 0x00, 0x46, 0xfc, 0xff, 0xff, 0x00, 0x00, 0x00, 0x01, 0x14, 0x00, 0x00, 0x00, 0x1c, 0x00, 0x00, 0x00, 0x1c, 0x00, 0x00, 0x00, 0x0b, 0x00, 0x00, 0x00, 0x34, 0x00, 0x00, 0x00, 0x02, 0x00, 0x00, 0x00, 0xff, 0xff, 0xff, 0xff, 0x04, 0x00, 0x00, 0x00, 0x30, 0xfc, 0xff, 0xff, 0x1b, 0x00, 0x00, 0x00, 0x53, 0x74, 0x61, 0x74, 0x65, 0x66, 0x75, 0x6c, 0x50, 0x61, 0x72, 0x74, 0x69, 0x74, 0x69, 0x6f, 0x6e, 0x65, 0x64, 0x43, 0x61, 0x6c, 0x6c, 0x5f, 0x31, 0x3a, 0x30, 0x00, 0x02, 0x00, 0x00, 0x00, 0x01, 0x00, 0x00, 0x00, 0x04, 0x00, 0x00, 0x00, 0x9e, 0xfc, 0xff, 0xff, 0x00, 0x00, 0x00, 0x01, 0x14, 0x00, 0x00, 0x00, 0x1c, 0x00, 0x00, 0x00, 0x1c, 0x00, 0x00, 0x00, 0x0a, 0x00, 0x00, 0x00, 0x58, 0x00, 0x00, 0x00, 0x02, 0x00, 0x00, 0x00, 0xff, 0xff, 0xff, 0xff, 0x04, 0x00, 0x00, 0x00, 0x88, 0xfc, 0xff, 0xff, 0x3c, 0x00, 0x00, 0x00, 0x73, 0x65, 0x71, 0x75, 0x65, 0x6e, 0x74, 0x69, 0x61, 0x6c, 0x5f, 0x31, 0x2f, 0x64, 0x65, 0x6e, 0x73, 0x65, 0x5f, 0x32, 0x5f, 0x31, 0x2f, 0x4d, 0x61, 0x74, 0x4d, 0x75, 0x6c, 0x3b, 0x73, 0x65, 0x71, 0x75, 0x65, 0x6e, 0x74, 0x69, 0x61, 0x6c, 0x5f, 0x31, 0x2f, 0x64, 0x65, 0x6e, 0x73, 0x65, 0x5f, 0x32, 0x5f, 0x31, 0x2f, 0x42, 0x69, 0x61, 0x73, 0x41, 0x64, 0x64, 0x00, 0x00, 0x00, 0x00, 0x02, 0x00, 0x00, 0x00, 0x01, 0x00, 0x00, 0x00, 0x04, 0x00, 0x00, 0x00, 0x1a, 0xfd, 0xff, 0xff, 0x00, 0x00, 0x00, 0x01, 0x14, 0x00, 0x00, 0x00, 0x1c, 0x00, 0x00, 0x00, 0x1c, 0x00, 0x00, 0x00, 0x09, 0x00, 0x00, 0x00, 0x74, 0x00, 0x00, 0x00, 0x02, 0x00, 0x00, 0x00, 0xff, 0xff, 0xff, 0xff, 0x08, 0x00, 0x00, 0x00, 0x04, 0xfd, 0xff, 0xff, 0x58, 0x00, 0x00, 0x00, 0x73, 0x65, 0x71, 0x75, 0x65, 0x6e, 0x74, 0x69, 0x61, 0x6c, 0x5f, 0x31, 0x2f, 0x64, 0x65, 0x6e, 0x73, 0x65, 0x5f, 0x31, 0x5f, 0x32, 0x2f, 0x4d, 0x61, 0x74, 0x4d, 0x75, 0x6c, 0x3b, 0x73, 0x65, 0x71, 0x75, 0x65, 0x6e, 0x74, 0x69, 0x61, 0x6c, 0x5f, 0x31, 0x2f, 0x64, 0x65, 0x6e, 0x73, 0x65, 0x5f, 0x31, 0x5f, 0x32, 0x2f, 0x52, 0x65, 0x6c, 0x75, 0x3b, 0x73, 0x65, 0x71, 0x75, 0x65, 0x6e, 0x74, 0x69, 0x61, 0x6c, 0x5f, 0x31, 0x2f, 0x64, 0x65, 0x6e, 0x73, 0x65, 0x5f, 0x31, 0x5f, 0x32, 0x2f, 0x42, 0x69, 0x61, 0x73, 0x41, 0x64, 0x64, 0x00, 0x00, 0x00, 0x00, 0x02, 0x00, 0x00, 0x00, 0x01, 0x00, 0x00, 0x00, 0x08, 0x00, 0x00, 0x00, 0xb2, 0xfd, 0xff, 0xff, 0x00, 0x00, 0x00, 0x01, 0x14, 0x00, 0x00, 0x00, 0x1c, 0x00, 0x00, 0x00, 0x1c, 0x00, 0x00, 0x00, 0x08, 0x00, 0x00, 0x00, 0x6c, 0x00, 0x00, 0x00, 0x02, 0x00, 0x00, 0x00, 0xff, 0xff, 0xff, 0xff, 0x10, 0x00, 0x00, 0x00, 0x9c, 0xfd, 0xff, 0xff, 0x52, 0x00, 0x00, 0x00, 0x73, 0x65, 0x71, 0x75, 0x65, 0x6e, 0x74, 0x69, 0x61, 0x6c, 0x5f, 0x31, 0x2f, 0x64, 0x65, 0x6e, 0x73, 0x65, 0x5f, 0x31, 0x2f, 0x4d, 0x61, 0x74, 0x4d, 0x75, 0x6c, 0x3b, 0x73, 0x65, 0x71, 0x75, 0x65, 0x6e, 0x74, 0x69, 0x61, 0x6c, 0x5f, 0x31, 0x2f, 0x64, 0x65, 0x6e, 0x73, 0x65, 0x5f, 0x31, 0x2f, 0x52, 0x65, 0x6c, 0x75, 0x3b, 0x73, 0x65, 0x71, 0x75, 0x65, 0x6e, 0x74, 0x69, 0x61, 0x6c, 0x5f, 0x31, 0x2f, 0x64, 0x65, 0x6e, 0x73, 0x65, 0x5f, 0x31, 0x2f, 0x42, 0x69, 0x61, 0x73, 0x41, 0x64, 0x64, 0x00, 0x00, 0x02, 0x00, 0x00, 0x00, 0x01, 0x00, 0x00, 0x00, 0x10, 0x00, 0x00, 0x00, 0x96, 0xfe, 0xff, 0xff, 0x00, 0x00, 0x00, 0x01, 0x10, 0x00, 0x00, 0x00, 0x10, 0x00, 0x00, 0x00, 0x07, 0x00, 0x00, 0x00, 0x28, 0x00, 0x00, 0x00, 0x1c, 0xfe, 0xff, 0xff, 0x1b, 0x00, 0x00, 0x00, 0x73, 0x65, 0x71, 0x75, 0x65, 0x6e, 0x74, 0x69, 0x61, 0x6c, 0x5f, 0x31, 0x2f, 0x64, 0x65, 0x6e, 0x73, 0x65, 0x5f, 0x31, 0x2f, 0x4d, 0x61, 0x74, 0x4d, 0x75, 0x6c, 0x00, 0x02, 0x00, 0x00, 0x00, 0x10, 0x00, 0x00, 0x00, 0x03, 0x00, 0x00, 0x00, 0xde, 0xfe, 0xff, 0xff, 0x00, 0x00, 0x00, 0x01, 0x10, 0x00, 0x00, 0x00, 0x10, 0x00, 0x00, 0x00, 0x06, 0x00, 0x00, 0x00, 0x38, 0x00, 0x00, 0x00, 0x64, 0xfe, 0xff, 0xff, 0x2b, 0x00, 0x00, 0x00, 0x73, 0x65, 0x71, 0x75, 0x65, 0x6e, 0x74, 0x69, 0x61, 0x6c, 0x5f, 0x31, 0x2f, 0x64, 0x65, 0x6e, 0x73, 0x65, 0x5f, 0x31, 0x2f, 0x42, 0x69, 0x61, 0x73, 0x41, 0x64, 0x64, 0x2f, 0x52, 0x65, 0x61, 0x64, 0x56, 0x61, 0x72, 0x69, 0x61, 0x62, 0x6c, 0x65, 0x4f, 0x70, 0x00, 0x01, 0x00, 0x00, 0x00, 0x10, 0x00, 0x00, 0x00, 0x32, 0xff, 0xff, 0xff, 0x00, 0x00, 0x00, 0x01, 0x10, 0x00, 0x00, 0x00, 0x10, 0x00, 0x00, 0x00, 0x05, 0x00, 0x00, 0x00, 0x3c, 0x00, 0x00, 0x00, 0xb8, 0xfe, 0xff, 0xff, 0x2d, 0x00, 0x00, 0x00, 0x73, 0x65, 0x71, 0x75, 0x65, 0x6e, 0x74, 0x69, 0x61, 0x6c, 0x5f, 0x31, 0x2f, 0x64, 0x65, 0x6e, 0x73, 0x65, 0x5f, 0x31, 0x5f, 0x32, 0x2f, 0x42, 0x69, 0x61, 0x73, 0x41, 0x64, 0x64, 0x2f, 0x52, 0x65, 0x61, 0x64, 0x56, 0x61, 0x72, 0x69, 0x61, 0x62, 0x6c, 0x65, 0x4f, 0x70, 0x00, 0x00, 0x00, 0x01, 0x00, 0x00, 0x00, 0x08, 0x00, 0x00, 0x00, 0x8a, 0xff, 0xff, 0xff, 0x00, 0x00, 0x00, 0x01, 0x10, 0x00, 0x00, 0x00, 0x10, 0x00, 0x00, 0x00, 0x04, 0x00, 0x00, 0x00, 0x1c, 0x00, 0x00, 0x00, 0x10, 0xff, 0xff, 0xff, 0x0f, 0x00, 0x00, 0x00, 0x61, 0x72, 0x69, 0x74, 0x68, 0x2e, 0x63, 0x6f, 0x6e, 0x73, 0x74, 0x61, 0x6e, 0x74, 0x32, 0x00, 0x01, 0x00, 0x00, 0x00, 0x04, 0x00, 0x00, 0x00, 0xc2, 0xff, 0xff, 0xff, 0x00, 0x00, 0x00, 0x01, 0x10, 0x00, 0x00, 0x00, 0x10, 0x00, 0x00, 0x00, 0x03, 0x00, 0x00, 0x00, 0x1c, 0x00, 0x00, 0x00, 0x48, 0xff, 0xff, 0xff, 0x0f, 0x00, 0x00, 0x00, 0x61, 0x72, 0x69, 0x74, 0x68, 0x2e, 0x63, 0x6f, 0x6e, 0x73, 0x74, 0x61, 0x6e, 0x74, 0x31, 0x00, 0x02, 0x00, 0x00, 0x00, 0x08, 0x00, 0x00, 0x00, 0x10, 0x00, 0x00, 0x00, 0x00, 0x00, 0x16, 0x00, 0x18, 0x00, 0x14, 0x00, 0x00, 0x00, 0x10, 0x00, 0x0c, 0x00, 0x08, 0x00, 0x00, 0x00, 0x00, 0x00, 0x00, 0x00, 0x07, 0x00, 0x16, 0x00, 0x00, 0x00, 0x00, 0x00, 0x00, 0x01, 0x10, 0x00, 0x00, 0x00, 0x10, 0x00, 0x00, 0x00, 0x02, 0x00, 0x00, 0x00, 0x1c, 0x00, 0x00, 0x00, 0x9c, 0xff, 0xff, 0xff, 0x0e, 0x00, 0x00, 0x00, 0x61, 0x72, 0x69, 0x74, 0x68, 0x2e, 0x63, 0x6f, 0x6e, 0x73, 0x74, 0x61, 0x6e, 0x74, 0x00, 0x00, 0x02, 0x00, 0x00, 0x00, 0x04, 0x00, 0x00, 0x00, 0x08, 0x00, 0x00, 0x00, 0x00, 0x00, 0x16, 0x00, 0x1c, 0x00, 0x18, 0x00, 0x00, 0x00, 0x14, 0x00, 0x10, 0x00, 0x0c, 0x00, 0x00, 0x00, 0x00, 0x00, 0x08, 0x00, 0x07, 0x00, 0x16, 0x00, 0x00, 0x00, 0x00, 0x00, 0x00, 0x01, 0x14, 0x00, 0x00, 0x00, 0x20, 0x00, 0x00, 0x00, 0x20, 0x00, 0x00, 0x00, 0x01, 0x00, 0x00, 0x00, 0x3c, 0x00, 0x00, 0x00, 0x02, 0x00, 0x00, 0x00, 0xff, 0xff, 0xff, 0xff, 0x03, 0x00, 0x00, 0x00, 0x04, 0x00, 0x04, 0x00, 0x04, 0x00, 0x00, 0x00, 0x1e, 0x00, 0x00, 0x00, 0x73, 0x65, 0x72, 0x76, 0x69, 0x6e, 0x67, 0x5f, 0x64, 0x65, 0x66, 0x61, 0x75, 0x6c, 0x74, 0x5f, 0x6b, 0x65, 0x72, 0x61, 0x73, 0x5f, 0x74, 0x65, 0x6e, 0x73, 0x6f, 0x72, 0x3a, 0x30, 0x00, 0x00, 0x02, 0x00, 0x00, 0x00, 0x01, 0x00, 0x00, 0x00, 0x03, 0x00, 0x00, 0x00, 0x02, 0x00, 0x00, 0x00, 0x20, 0x00, 0x00, 0x00, 0x04, 0x00, 0x00, 0x00, 0xf4, 0xff, 0xff, 0xff, 0x19, 0x00, 0x00, 0x00, 0x00, 0x00, 0x00, 0x19, 0x0c, 0x00, 0x0c, 0x00, 0x0b, 0x00, 0x00, 0x00, 0x00, 0x00, 0x04, 0x00, 0x0c, 0x00, 0x00, 0x00, 0x09, 0x00, 0x00, 0x00, 0x00, 0x00, 0x00, 0x09 };
const int model_data_len = 3048;

#endif